// AUTO-GENERATED by tools/edgeai_train.py - do not edit by hand.
// 2 class(es): slots [0, 1]
#pragma once

alignas(16) const unsigned char g_edgeai_model[] = {
  0x1c, 0x00, 0x00, 0x00, 0x54, 0x46, 0x4c, 0x33, 0x14, 0x00, 0x20, 0x00,
  0x1c, 0x00, 0x18, 0x00, 0x14, 0x00, 0x10, 0x00, 0x0c, 0x00, 0x00, 0x00,
  0x08, 0x00, 0x04, 0x00, 0x14, 0x00, 0x00, 0x00, 0x1c, 0x00, 0x00, 0x00,
  0x98, 0x00, 0x00, 0x00, 0xf0, 0x00, 0x00, 0x00, 0xb0, 0x08, 0x00, 0x00,
  0xc0, 0x08, 0x00, 0x00, 0x10, 0x0d, 0x00, 0x00, 0x03, 0x00, 0x00, 0x00,
  0x01, 0x00, 0x00, 0x00, 0x10, 0x00, 0x00, 0x00, 0x00, 0x00, 0x0a, 0x00,
  0x10, 0x00, 0x0c, 0x00, 0x08, 0x00, 0x04, 0x00, 0x0a, 0x00, 0x00, 0x00,
  0x0c, 0x00, 0x00, 0x00, 0x1c, 0x00, 0x00, 0x00, 0x3c, 0x00, 0x00, 0x00,
  0x0f, 0x00, 0x00, 0x00, 0x73, 0x65, 0x72, 0x76, 0x69, 0x6e, 0x67, 0x5f,
  0x64, 0x65, 0x66, 0x61, 0x75, 0x6c, 0x74, 0x00, 0x01, 0x00, 0x00, 0x00,
  0x04, 0x00, 0x00, 0x00, 0x90, 0xff, 0xff, 0xff, 0x07, 0x00, 0x00, 0x00,
  0x04, 0x00, 0x00, 0x00, 0x08, 0x00, 0x00, 0x00, 0x6f, 0x75, 0x74, 0x70,
  0x75, 0x74, 0x5f, 0x30, 0x00, 0x00, 0x00, 0x00, 0x01, 0x00, 0x00, 0x00,
  0x04, 0x00, 0x00, 0x00, 0x3a, 0xf7, 0xff, 0xff, 0x04, 0x00, 0x00, 0x00,
  0x0c, 0x00, 0x00, 0x00, 0x6b, 0x65, 0x72, 0x61, 0x73, 0x5f, 0x74, 0x65,
  0x6e, 0x73, 0x6f, 0x72, 0x00, 0x00, 0x00, 0x00, 0x02, 0x00, 0x00, 0x00,
  0x34, 0x00, 0x00, 0x00, 0x04, 0x00, 0x00, 0x00, 0xdc, 0xff, 0xff, 0xff,
  0x0a, 0x00, 0x00, 0x00, 0x04, 0x00, 0x00, 0x00, 0x13, 0x00, 0x00, 0x00,
  0x43, 0x4f, 0x4e, 0x56, 0x45, 0x52, 0x53, 0x49, 0x4f, 0x4e, 0x5f, 0x4d,
  0x45, 0x54, 0x41, 0x44, 0x41, 0x54, 0x41, 0x00, 0x08, 0x00, 0x0c, 0x00,
  0x08, 0x00, 0x04, 0x00, 0x08, 0x00, 0x00, 0x00, 0x09, 0x00, 0x00, 0x00,
  0x04, 0x00, 0x00, 0x00, 0x13, 0x00, 0x00, 0x00, 0x6d, 0x69, 0x6e, 0x5f,
  0x72, 0x75, 0x6e, 0x74, 0x69, 0x6d, 0x65, 0x5f, 0x76, 0x65, 0x72, 0x73,
  0x69, 0x6f, 0x6e, 0x00, 0x0b, 0x00, 0x00, 0x00, 0xbc, 0x07, 0x00, 0x00,
  0xb4, 0x07, 0x00, 0x00, 0x9c, 0x07, 0x00, 0x00, 0x0c, 0x07, 0x00, 0x00,
  0xfc, 0x00, 0x00, 0x00, 0xac, 0x00, 0x00, 0x00, 0xa4, 0x00, 0x00, 0x00,
  0x9c, 0x00, 0x00, 0x00, 0x94, 0x00, 0x00, 0x00, 0x74, 0x00, 0x00, 0x00,
  0x04, 0x00, 0x00, 0x00, 0xe2, 0xf7, 0xff, 0xff, 0x04, 0x00, 0x00, 0x00,
  0x60, 0x00, 0x00, 0x00, 0x0c, 0x00, 0x00, 0x00, 0x08, 0x00, 0x0e, 0x00,
  0x08, 0x00, 0x04, 0x00, 0x08, 0x00, 0x00, 0x00, 0x10, 0x00, 0x00, 0x00,
  0x28, 0x00, 0x00, 0x00, 0x00, 0x00, 0x06, 0x00, 0x08, 0x00, 0x04, 0x00,
  0x06, 0x00, 0x00, 0x00, 0x04, 0x00, 0x00, 0x00, 0x01, 0x00, 0x00, 0x00,
  0xea, 0x03, 0x00, 0x00, 0x0c, 0x00, 0x18, 0x00, 0x14, 0x00, 0x10, 0x00,
  0x0c, 0x00, 0x04, 0x00, 0x0c, 0x00, 0x00, 0x00, 0xe4, 0xe5, 0x76, 0x40,
  0xb2, 0xe3, 0x9f, 0x73, 0x02, 0x00, 0x00, 0x00, 0x02, 0x00, 0x00, 0x00,
  0x04, 0x00, 0x00, 0x00, 0x06, 0x00, 0x00, 0x00, 0x32, 0x2e, 0x32, 0x30,
  0x2e, 0x30, 0x00, 0x00, 0x4e, 0xf8, 0xff, 0xff, 0x04, 0x00, 0x00, 0x00,
  0x10, 0x00, 0x00, 0x00, 0x31, 0x2e, 0x35, 0x2e, 0x30, 0x00, 0x00, 0x00,
  0x00, 0x00, 0x00, 0x00, 0x00, 0x00, 0x00, 0x00, 0xc4, 0xf4, 0xff, 0xff,
  0xc8, 0xf4, 0xff, 0xff, 0xcc, 0xf4, 0xff, 0xff, 0x76, 0xf8, 0xff, 0xff,
  0x04, 0x00, 0x00, 0x00, 0x40, 0x00, 0x00, 0x00, 0x2c, 0xea, 0x2d, 0x3c,
  0x26, 0x79, 0x80, 0x3d, 0x89, 0x55, 0xc2, 0x3d, 0xcc, 0xac, 0x7f, 0x3d,
  0x3a, 0x3d, 0x96, 0x3d, 0x29, 0x02, 0x56, 0x3c, 0x88, 0x0a, 0x4d, 0x3d,
  0xb4, 0x19, 0x7a, 0xbd, 0xde, 0x40, 0xeb, 0x3c, 0xa8, 0xbd, 0xe6, 0xbc,
  0x89, 0x90, 0x84, 0xbc, 0x7b, 0x06, 0xfc, 0xbc, 0xd2, 0x4c, 0x0b, 0xbd,
  0xaf, 0xe1, 0x91, 0x3d, 0x99, 0x55, 0xd6, 0xbc, 0x87, 0xde, 0xc7, 0xbc,
  0xc2, 0xf8, 0xff, 0xff, 0x04, 0x00, 0x00, 0x00, 0x00, 0x06, 0x00, 0x00,
  0x0f, 0x89, 0x00, 0x3e, 0x30, 0x8c, 0x1f, 0xbe, 0x02, 0xcb, 0x7d, 0xbe,
  0xa0, 0x1d, 0xdb, 0xbe, 0x80, 0xd2, 0x52, 0x3d, 0x0b, 0x46, 0xa9, 0x3e,
  0xc2, 0x0e, 0x26, 0xbb, 0x64, 0x1a, 0x2a, 0x3f, 0x30, 0x8f, 0xd5, 0x3e,
  0xbf, 0x5c, 0xaf, 0x3e, 0x36, 0x98, 0x78, 0xbe, 0x95, 0x6b, 0xdb, 0x3e,
  0x79, 0xa9, 0xc9, 0x3d, 0xf0, 0x00, 0x66, 0xbe, 0x06, 0x8b, 0x1d, 0xbe,
  0x88, 0x83, 0x45, 0xbe, 0x44, 0x28, 0xac, 0x3d, 0x44, 0x1a, 0x9e, 0x3e,
  0xb6, 0x4e, 0x6b, 0x3f, 0xa8, 0xa8, 0xde, 0xbb, 0xc1, 0x1e, 0xa8, 0x3e,
  0xc1, 0xf7, 0x2a, 0x3f, 0x51, 0x68, 0x13, 0x3d, 0xfc, 0x8b, 0x1a, 0x3f,
  0x53, 0x0d, 0xc2, 0x3e, 0x16, 0x47, 0x83, 0x3e, 0x3b, 0xf5, 0x27, 0x3e,
  0x27, 0xb3, 0xb5, 0x3e, 0xfa, 0x05, 0xf6, 0x3b, 0x8c, 0x2b, 0xd4, 0x3e,
  0xc7, 0x57, 0x5d, 0x3d, 0x89, 0x62, 0xc6, 0x3e, 0xf6, 0xb7, 0x2e, 0x3f,
  0xd8, 0x8c, 0x03, 0x3e, 0xb8, 0x2f, 0x9d, 0x3d, 0x5f, 0xbc, 0x82, 0x3d,
  0xff, 0xb4, 0x3c, 0x3d, 0x5a, 0x7d, 0xc8, 0x3d, 0x64, 0xe3, 0x39, 0xbe,
  0x91, 0x36, 0xb4, 0x3e, 0x06, 0x6d, 0x87, 0x3e, 0x1a, 0x81, 0x6a, 0xbf,
  0x72, 0x76, 0x2a, 0x3f, 0x00, 0x2d, 0xed, 0xbd, 0xd5, 0x78, 0x86, 0xbc,
  0x03, 0xab, 0xe4, 0x3e, 0x57, 0x11, 0x59, 0x3f, 0x9c, 0x2a, 0x72, 0x3f,
  0x77, 0x7c, 0xc7, 0x3e, 0xf5, 0xad, 0x0a, 0x3e, 0x6a, 0x63, 0xd3, 0xbd,
  0x13, 0x63, 0xd9, 0x3c, 0xe1, 0x5f, 0xba, 0xbc, 0x38, 0xac, 0xc4, 0xbd,
  0x19, 0x8b, 0xf6, 0xbd, 0x73, 0xf6, 0x9d, 0x3e, 0xec, 0x2a, 0x19, 0x3f,
  0x87, 0x9b, 0x18, 0x3e, 0x2b, 0x58, 0x4c, 0xbd, 0x55, 0x6d, 0xd5, 0xbe,
  0x21, 0xe5, 0x57, 0x3e, 0x99, 0x77, 0xf9, 0x3e, 0xee, 0xb9, 0x2c, 0x3e,
  0xe3, 0xb3, 0xa2, 0x3e, 0x37, 0xf6, 0xbd, 0xbe, 0xb1, 0xc2, 0x93, 0xbf,
  0xa8, 0x9b, 0x92, 0x3e, 0x98, 0x4b, 0x2c, 0xbf, 0xd3, 0x9d, 0xd7, 0xbe,
  0xc6, 0xf3, 0xf9, 0x3e, 0xca, 0x08, 0xe1, 0x3e, 0x00, 0x03, 0x60, 0xbe,
  0xd0, 0x83, 0x46, 0x3e, 0x81, 0xf3, 0x9d, 0x3e, 0x7c, 0xc2, 0x9e, 0x3e,
  0xc0, 0x13, 0x99, 0x3e, 0xf9, 0x49, 0x4c, 0x3e, 0xff, 0x67, 0x54, 0xbe,
  0x81, 0x03, 0x4c, 0x3e, 0xcd, 0x58, 0xdd, 0x3e, 0x77, 0x4a, 0xe5, 0x3e,
  0x10, 0x09, 0xf4, 0x3e, 0xf6, 0x60, 0x88, 0xbe, 0x7d, 0x12, 0x1a, 0xbe,
  0xc9, 0xc4, 0xb7, 0xbd, 0x26, 0x32, 0xaa, 0xbe, 0xaa, 0xaf, 0xbd, 0xbe,
  0xe1, 0xc5, 0xb9, 0xbd, 0x03, 0x64, 0x24, 0x3d, 0x77, 0x19, 0x11, 0xbf,
  0xde, 0x8b, 0x23, 0x3f, 0x26, 0x28, 0x4c, 0xbe, 0x0d, 0x82, 0x4c, 0x3e,
  0x40, 0xdb, 0x71, 0x3f, 0xe9, 0xee, 0x3d, 0x3e, 0x22, 0xfe, 0xac, 0x3e,
  0xc1, 0xf8, 0x8b, 0x3e, 0x73, 0x97, 0xb0, 0x3d, 0xd0, 0x35, 0xd8, 0x3d,
  0x51, 0xfc, 0xe3, 0xbd, 0xf3, 0x1a, 0xca, 0x3e, 0x37, 0x0f, 0xda, 0x3d,
  0xc9, 0x51, 0x8c, 0x3e, 0xe7, 0xeb, 0x0e, 0x3f, 0xaa, 0xf5, 0xf4, 0x3e,
  0xac, 0x90, 0x46, 0xbd, 0x5c, 0xc5, 0x4c, 0x3e, 0xa0, 0xb3, 0xc2, 0x3d,
  0x51, 0x6c, 0x8d, 0xbe, 0x9b, 0x2e, 0xd1, 0x3d, 0x64, 0x15, 0x90, 0xbe,
  0xb5, 0x62, 0x90, 0x3e, 0x6c, 0x2d, 0x4c, 0xbe, 0x99, 0xe8, 0x0d, 0xbf,
  0x6c, 0x73, 0x31, 0x3f, 0xa7, 0xd3, 0xe0, 0xbd, 0x1a, 0x4e, 0x84, 0xbe,
  0x53, 0x0b, 0x91, 0x3f, 0x21, 0x03, 0x44, 0x3f, 0x45, 0xfd, 0x77, 0x3f,
  0xa6, 0xc9, 0xb9, 0x3e, 0x2f, 0xe5, 0xa4, 0x3e, 0x80, 0xe2, 0x53, 0x3d,
  0x30, 0x58, 0xaf, 0xbe, 0x1f, 0x0b, 0xbe, 0xbc, 0x84, 0x34, 0xa6, 0xbe,
  0xe6, 0xb0, 0x1c, 0xbd, 0x45, 0x12, 0x19, 0x3e, 0xcc, 0x9f, 0x9c, 0x3e,
  0x8a, 0x58, 0x7c, 0xbd, 0x26, 0xb4, 0x6d, 0xbd, 0xc8, 0x84, 0x7b, 0x3c,
  0xd2, 0xe6, 0x7a, 0x3e, 0x39, 0xf0, 0xba, 0x3e, 0x37, 0xde, 0x8b, 0xbc,
  0xfd, 0x4d, 0x5c, 0xbe, 0x7e, 0x6e, 0xab, 0xbd, 0xff, 0x92, 0x49, 0xbe,
  0x2b, 0x90, 0x45, 0x3f, 0xda, 0x38, 0x12, 0xbf, 0xa2, 0x9b, 0x4a, 0x3e,
  0xcd, 0xc4, 0x42, 0x3f, 0x7e, 0x69, 0x13, 0x3f, 0x5e, 0xea, 0x11, 0x3f,
  0x5c, 0xae, 0xdb, 0x3e, 0x88, 0xe6, 0x38, 0x3b, 0x0e, 0x76, 0x32, 0x3d,
  0x2f, 0x79, 0x73, 0xbe, 0xf6, 0x8b, 0xec, 0xbd, 0x43, 0x74, 0xcd, 0xbd,
  0xd9, 0x45, 0x14, 0x3f, 0x4f, 0x3f, 0xcc, 0x3e, 0x7a, 0x05, 0x57, 0x3f,
  0x03, 0xe7, 0xac, 0x3d, 0x56, 0x4f, 0x35, 0x3e, 0x9a, 0xce, 0x37, 0xbe,
  0x05, 0x0a, 0x23, 0x3e, 0x4d, 0x7c, 0x5c, 0xbe, 0x42, 0x93, 0xb7, 0xbe,
  0xf4, 0x6a, 0x75, 0x3d, 0x4f, 0x56, 0x3c, 0x3e, 0xc5, 0x3a, 0xc7, 0xbe,
  0xf4, 0xfe, 0x9f, 0x3f, 0xb2, 0x8b, 0x38, 0xbf, 0xfe, 0x4f, 0xac, 0x3c,
  0x57, 0x86, 0x97, 0x3f, 0xcc, 0xf0, 0x75, 0x3e, 0x74, 0xd0, 0xd6, 0x3e,
  0x61, 0x91, 0x32, 0x3e, 0x01, 0x0d, 0x84, 0x3e, 0xbb, 0xba, 0x83, 0x3c,
  0x8e, 0x76, 0x70, 0x3d, 0x94, 0x19, 0x45, 0x3e, 0xb5, 0x0e, 0xf3, 0xbe,
  0x94, 0x4e, 0xdf, 0xbe, 0x54, 0x36, 0xe7, 0xbe, 0x70, 0xa2, 0x11, 0xbf,
  0x9b, 0x84, 0x68, 0x3e, 0xae, 0xa4, 0xb1, 0x3e, 0x96, 0xb1, 0x52, 0x3e,
  0x8e, 0x79, 0xaf, 0x3e, 0xc8, 0x97, 0x6f, 0xbe, 0xee, 0x29, 0x62, 0x3e,
  0x11, 0x9f, 0x43, 0x3e, 0xfb, 0x56, 0x25, 0x3d, 0x5e, 0x71, 0x39, 0x3f,
  0x01, 0x5e, 0xda, 0xbe, 0x82, 0xe5, 0x91, 0x3d, 0x3e, 0x5c, 0x19, 0xbd,
  0x4b, 0xe6, 0x92, 0xbf, 0x08, 0xa0, 0xff, 0xbe, 0x20, 0x8b, 0x34, 0xbf,
  0xef, 0x6a, 0x42, 0xbd, 0x8b, 0xd1, 0xec, 0x3e, 0xc6, 0x12, 0xa9, 0xbe,
  0xef, 0xeb, 0x9e, 0x3d, 0xa7, 0xdf, 0x46, 0xbe, 0x89, 0x44, 0xf8, 0x3c,
  0x06, 0x9f, 0xc8, 0x3d, 0x8d, 0xc8, 0x14, 0xbe, 0xec, 0xf4, 0x28, 0xbf,
  0x77, 0xbf, 0xac, 0x3e, 0x15, 0x9a, 0xe2, 0x3e, 0xb4, 0x5b, 0x29, 0x3f,
  0xe2, 0xa2, 0x9c, 0x3e, 0xae, 0xb7, 0x47, 0x3e, 0x13, 0xbf, 0xef, 0x3d,
  0x01, 0x1d, 0x87, 0xbe, 0xbc, 0x15, 0xe5, 0x3e, 0xf6, 0xad, 0x0a, 0x3f,
  0x79, 0x93, 0x67, 0xbf, 0x04, 0x33, 0xc4, 0x3e, 0x3e, 0x64, 0x1c, 0xbd,
  0xc1, 0x36, 0x44, 0xbf, 0x4d, 0xca, 0x3a, 0xbf, 0x31, 0x12, 0x06, 0xbf,
  0x0f, 0x39, 0x41, 0x3e, 0x75, 0x6f, 0x85, 0xbe, 0x4c, 0xfb, 0x88, 0x3c,
  0x0c, 0xe2, 0x7a, 0x3e, 0xba, 0x8f, 0x00, 0x3e, 0xce, 0x53, 0xb4, 0x3d,
  0x50, 0x24, 0x4e, 0xbe, 0x9b, 0x8e, 0x4e, 0x3d, 0x10, 0xdd, 0x74, 0xbe,
  0xa9, 0xd4, 0x91, 0xbe, 0x8f, 0xda, 0x3f, 0xbe, 0x16, 0xda, 0x31, 0x3f,
  0x9f, 0x6c, 0x0c, 0x3e, 0xca, 0x34, 0x33, 0x3d, 0xb5, 0xb2, 0x3a, 0x3c,
  0x38, 0x47, 0x56, 0xbe, 0x4b, 0x9b, 0x9d, 0x3e, 0x33, 0x2e, 0x1a, 0x3f,
  0xe4, 0x13, 0x70, 0xbf, 0xd2, 0xaa, 0xff, 0x3e, 0xb4, 0xba, 0x0c, 0x3e,
  0x6d, 0xbe, 0x17, 0xbf, 0xe0, 0xeb, 0x01, 0xbf, 0x40, 0xcf, 0x82, 0xbf,
  0x8a, 0x19, 0xe2, 0x3e, 0x90, 0xe2, 0xc1, 0x3e, 0x90, 0x65, 0xe8, 0xbd,
  0x40, 0xc2, 0xf9, 0xbd, 0x32, 0x7a, 0x04, 0xbf, 0x3c, 0x73, 0xd8, 0xbd,
  0xa2, 0x74, 0x95, 0xbb, 0xae, 0x82, 0x88, 0x3e, 0x89, 0xdf, 0xa2, 0x3e,
  0xd5, 0xab, 0xe9, 0xbd, 0xc5, 0x51, 0x1d, 0xbe, 0x07, 0x78, 0x64, 0xbe,
  0xd7, 0x9d, 0xbb, 0x3e, 0x11, 0x2c, 0x29, 0xbc, 0xb1, 0xbf, 0xb3, 0xbd,
  0x27, 0xcf, 0x0b, 0x3e, 0xeb, 0x4c, 0x80, 0x3e, 0xe5, 0x21, 0x68, 0x3e,
  0x29, 0x09, 0x0d, 0xbf, 0xee, 0x11, 0xc7, 0x3e, 0xc5, 0x4f, 0x45, 0x3e,
  0xe6, 0xe6, 0x26, 0x3d, 0x29, 0xcf, 0xe8, 0xbd, 0x4f, 0xd5, 0x3d, 0x3e,
  0xfb, 0x15, 0x6c, 0x3e, 0x51, 0xdf, 0x84, 0x3e, 0x09, 0x6a, 0x0a, 0xbe,
  0x74, 0xf0, 0xd7, 0x3d, 0x69, 0x82, 0xec, 0xbe, 0x73, 0x98, 0xbf, 0x3d,
  0xd1, 0x2f, 0x29, 0x3d, 0x5f, 0x77, 0xaa, 0x3d, 0xad, 0x88, 0x6d, 0xbe,
  0xb0, 0x1a, 0x08, 0x3d, 0x3d, 0x6f, 0xd3, 0x3e, 0x0a, 0x26, 0x06, 0x3e,
  0x5d, 0xdc, 0x17, 0x3f, 0x29, 0xe5, 0xb0, 0x3e, 0xd3, 0x89, 0xa1, 0xbd,
  0xba, 0xaa, 0x06, 0xbe, 0xb8, 0xb5, 0x85, 0x3e, 0x2e, 0xbf, 0x84, 0x3f,
  0xd2, 0xda, 0x61, 0xbf, 0x67, 0xb7, 0x31, 0x3f, 0x9c, 0x4a, 0x12, 0x3f,
  0xd6, 0x4c, 0x5a, 0xbf, 0x9f, 0xc9, 0x09, 0xbf, 0xdb, 0xe7, 0x11, 0xbf,
  0xd5, 0x3e, 0x6e, 0xbe, 0xb5, 0x1d, 0x9f, 0xbd, 0xd3, 0x7d, 0x2b, 0x3d,
  0xa0, 0xc5, 0xe0, 0x3c, 0xfc, 0x81, 0xd3, 0xbd, 0xbd, 0xb8, 0xa7, 0x3e,
  0xb5, 0x0b, 0x95, 0xbe, 0x5d, 0x34, 0x70, 0xbe, 0xb8, 0x40, 0xf2, 0x3d,
  0x20, 0x31, 0x0d, 0x3e, 0x33, 0xeb, 0xce, 0xbe, 0xaf, 0x59, 0xa0, 0x3c,
  0xca, 0x65, 0xe3, 0xbc, 0xfe, 0x20, 0x30, 0x3e, 0x77, 0x8a, 0x94, 0xbe,
  0x79, 0xd4, 0x91, 0xbe, 0x0d, 0x2b, 0x6e, 0x3d, 0x65, 0x74, 0x75, 0xbe,
  0x7c, 0x36, 0x76, 0x3e, 0x28, 0xbd, 0x01, 0x3d, 0xd0, 0x5f, 0xc2, 0xbe,
  0x33, 0x1a, 0x70, 0x3e, 0xa0, 0x80, 0xb2, 0xbe, 0x17, 0xa8, 0x3c, 0xbd,
  0x40, 0xc7, 0xb9, 0xbe, 0x81, 0x82, 0x91, 0xbe, 0xe6, 0xf5, 0xa9, 0xbc,
  0x7e, 0xdf, 0xa2, 0x3e, 0x2a, 0xe3, 0xdb, 0x3e, 0x93, 0xfb, 0xbb, 0x3e,
  0x92, 0xc6, 0xd6, 0x3e, 0x52, 0x74, 0x30, 0x3f, 0x2e, 0x9f, 0x47, 0x3e,
  0x80, 0xaa, 0x03, 0x3e, 0x6d, 0x06, 0xc4, 0xbd, 0x82, 0xd1, 0x5b, 0xbf,
  0xd4, 0xb7, 0xec, 0x3c, 0xae, 0x46, 0xa9, 0xbe, 0xee, 0x22, 0xd3, 0xbd,
  0x45, 0xb9, 0x21, 0x3d, 0x17, 0xc2, 0x0b, 0x3e, 0xea, 0x29, 0x83, 0xbf,
  0x72, 0x34, 0x95, 0x3f, 0x1e, 0x98, 0x9a, 0xbe, 0x1d, 0x00, 0xe8, 0x3d,
  0xdc, 0x25, 0x53, 0x3f, 0x99, 0x4a, 0x51, 0x3f, 0xa1, 0xe7, 0x8a, 0x3f,
  0x64, 0x4d, 0xbe, 0xbd, 0xd2, 0x11, 0x7a, 0xbe, 0x57, 0x2f, 0xc4, 0xbd,
  0x5b, 0xa4, 0x5d, 0xbe, 0x51, 0xdb, 0x33, 0xbe, 0xb5, 0xa4, 0x2e, 0x3d,
  0xf9, 0xe7, 0xe2, 0xbd, 0x8f, 0x63, 0x2e, 0xbe, 0xdf, 0x80, 0x92, 0x3d,
  0x37, 0x6c, 0x90, 0x3e, 0xf6, 0x01, 0x14, 0x3e, 0x11, 0x06, 0x06, 0x3e,
  0x16, 0x1b, 0x72, 0x3c, 0x00, 0x99, 0x01, 0x3d, 0xa0, 0x71, 0xf8, 0xbd,
  0x48, 0xa0, 0xbc, 0x3c, 0x5f, 0xfa, 0xe8, 0xbd, 0xbb, 0x07, 0x65, 0x3e,
  0xb1, 0x13, 0xa1, 0x3e, 0xef, 0xf6, 0x81, 0x3e, 0xc5, 0xeb, 0x46, 0xbe,
  0xa2, 0x9d, 0xac, 0xbe, 0xe0, 0x05, 0xef, 0x3c, 0x26, 0x5e, 0x7c, 0x3e,
  0xba, 0x09, 0x17, 0x3e, 0x92, 0x7f, 0x17, 0xbe, 0xdf, 0x57, 0x13, 0x3e,
  0xfd, 0xac, 0x1c, 0xbd, 0xf7, 0x21, 0x95, 0x3e, 0xce, 0x6b, 0x81, 0xbd,
  0xf4, 0x86, 0x9b, 0x3d, 0xd0, 0x48, 0x8c, 0xbe, 0x03, 0xe8, 0x2c, 0xbe,
  0xe7, 0x47, 0x7a, 0x3c, 0x1f, 0x55, 0x51, 0xbe, 0xc0, 0x93, 0xeb, 0x3e,
  0xa1, 0x01, 0xde, 0x3e, 0x38, 0x2e, 0x4d, 0xbe, 0x40, 0xb8, 0x04, 0x3f,
  0xe7, 0xe3, 0x56, 0xbd, 0x93, 0x11, 0x67, 0x3e, 0x63, 0x4f, 0xa8, 0x3e,
  0xed, 0xad, 0x80, 0xbf, 0x42, 0x3f, 0x98, 0x3e, 0x67, 0xe6, 0xe1, 0x3e,
  0xd7, 0x48, 0x27, 0xbf, 0xc5, 0x13, 0x31, 0xbf, 0xb3, 0x0b, 0x24, 0xbf,
  0xce, 0xfe, 0xff, 0xff, 0x04, 0x00, 0x00, 0x00, 0x80, 0x00, 0x00, 0x00,
  0x41, 0x1e, 0xbb, 0x3f, 0x9a, 0x3a, 0x04, 0x3f, 0x75, 0x30, 0x89, 0x3f,
  0x78, 0x82, 0x36, 0x3f, 0x52, 0xe5, 0x22, 0xbe, 0x81, 0x0b, 0xb6, 0x3e,
  0x28, 0x22, 0xb9, 0x3f, 0x3d, 0x63, 0x03, 0xbf, 0x1e, 0x08, 0x8a, 0xbf,
  0xc8, 0xdb, 0x96, 0xbd, 0x64, 0x61, 0x2b, 0xbf, 0x03, 0x55, 0xc3, 0xbd,
  0x43, 0x39, 0x05, 0xbf, 0x52, 0xc5, 0x7e, 0x3f, 0x18, 0xfa, 0xb3, 0xbd,
  0x75, 0xb7, 0xa5, 0x3d, 0x76, 0x4f, 0xb3, 0xbf, 0x93, 0xbf, 0x34, 0xbc,
  0x24, 0x0d, 0x89, 0xbf, 0x7d, 0xd4, 0x92, 0xbe, 0x1c, 0x5c, 0x38, 0xbf,
  0x59, 0x15, 0x06, 0xbe, 0x16, 0x06, 0x8a, 0xbf, 0x96, 0xb4, 0x2e, 0x3f,
  0x24, 0x7d, 0x92, 0x3e, 0x23, 0x3b, 0x39, 0x3f, 0x86, 0x13, 0x80, 0x3f,
  0x43, 0x45, 0x4b, 0x3f, 0xac, 0xad, 0xe7, 0xbc, 0x9e, 0x46, 0xf7, 0xbe,
  0xbf, 0x87, 0x12, 0x3e, 0x0a, 0x74, 0x1a, 0x3f, 0x5a, 0xff, 0xff, 0xff,
  0x04, 0x00, 0x00, 0x00, 0x08, 0x00, 0x00, 0x00, 0x7c, 0xc4, 0x7c, 0x3d,
  0x7c, 0xc4, 0x7c, 0xbd, 0xc8, 0xfb, 0xff, 0xff, 0xcc, 0xfb, 0xff, 0xff,
  0x0f, 0x00, 0x00, 0x00, 0x4d, 0x4c, 0x49, 0x52, 0x20, 0x43, 0x6f, 0x6e,
  0x76, 0x65, 0x72, 0x74, 0x65, 0x64, 0x2e, 0x00, 0x01, 0x00, 0x00, 0x00,
  0x14, 0x00, 0x00, 0x00, 0x00, 0x00, 0x0e, 0x00, 0x18, 0x00, 0x14, 0x00,
  0x10, 0x00, 0x0c, 0x00, 0x08, 0x00, 0x04, 0x00, 0x0e, 0x00, 0x00, 0x00,
  0x14, 0x00, 0x00, 0x00, 0x1c, 0x00, 0x00, 0x00, 0xec, 0x00, 0x00, 0x00,
  0xf0, 0x00, 0x00, 0x00, 0xf4, 0x00, 0x00, 0x00, 0x04, 0x00, 0x00, 0x00,
  0x6d, 0x61, 0x69, 0x6e, 0x00, 0x00, 0x00, 0x00, 0x03, 0x00, 0x00, 0x00,
  0x94, 0x00, 0x00, 0x00, 0x50, 0x00, 0x00, 0x00, 0x14, 0x00, 0x00, 0x00,
  0x00, 0x00, 0x0e, 0x00, 0x1a, 0x00, 0x14, 0x00, 0x10, 0x00, 0x0c, 0x00,
  0x0b, 0x00, 0x04, 0x00, 0x0e, 0x00, 0x00, 0x00, 0x1c, 0x00, 0x00, 0x00,
  0x00, 0x00, 0x00, 0x09, 0x1c, 0x00, 0x00, 0x00, 0x20, 0x00, 0x00, 0x00,
  0x01, 0x00, 0x00, 0x00, 0x00, 0x00, 0x06, 0x00, 0x08, 0x00, 0x04, 0x00,
  0x06, 0x00, 0x00, 0x00, 0x00, 0x00, 0x80, 0x3f, 0x01, 0x00, 0x00, 0x00,
  0x07, 0x00, 0x00, 0x00, 0x01, 0x00, 0x00, 0x00, 0x06, 0x00, 0x00, 0x00,
  0xce, 0xff, 0xff, 0xff, 0x10, 0x00, 0x00, 0x00, 0x00, 0x00, 0x00, 0x08,
  0x0c, 0x00, 0x00, 0x00, 0x10, 0x00, 0x00, 0x00, 0x8c, 0xfc, 0xff, 0xff,
  0x01, 0x00, 0x00, 0x00, 0x06, 0x00, 0x00, 0x00, 0x03, 0x00, 0x00, 0x00,
  0x05, 0x00, 0x00, 0x00, 0x02, 0x00, 0x00, 0x00, 0x01, 0x00, 0x00, 0x00,
  0x00, 0x00, 0x0e, 0x00, 0x16, 0x00, 0x00, 0x00, 0x10, 0x00, 0x0c, 0x00,
  0x0b, 0x00, 0x04, 0x00, 0x0e, 0x00, 0x00, 0x00, 0x18, 0x00, 0x00, 0x00,
  0x00, 0x00, 0x00, 0x08, 0x18, 0x00, 0x00, 0x00, 0x1c, 0x00, 0x00, 0x00,
  0x00, 0x00, 0x06, 0x00, 0x08, 0x00, 0x07, 0x00, 0x06, 0x00, 0x00, 0x00,
  0x00, 0x00, 0x00, 0x01, 0x01, 0x00, 0x00, 0x00, 0x05, 0x00, 0x00, 0x00,
  0x03, 0x00, 0x00, 0x00, 0x00, 0x00, 0x00, 0x00, 0x03, 0x00, 0x00, 0x00,
  0x04, 0x00, 0x00, 0x00, 0x01, 0x00, 0x00, 0x00, 0x07, 0x00, 0x00, 0x00,
  0x01, 0x00, 0x00, 0x00, 0x00, 0x00, 0x00, 0x00, 0x08, 0x00, 0x00, 0x00,
  0xd0, 0x02, 0x00, 0x00, 0x7c, 0x02, 0x00, 0x00, 0x24, 0x02, 0x00, 0x00,
  0xd8, 0x01, 0x00, 0x00, 0x74, 0x01, 0x00, 0x00, 0xe0, 0x00, 0x00, 0x00,
  0x60, 0x00, 0x00, 0x00, 0x04, 0x00, 0x00, 0x00, 0x66, 0xfd, 0xff, 0xff,
  0x00, 0x00, 0x00, 0x01, 0x14, 0x00, 0x00, 0x00, 0x1c, 0x00, 0x00, 0x00,
  0x1c, 0x00, 0x00, 0x00, 0x08, 0x00, 0x00, 0x00, 0x34, 0x00, 0x00, 0x00,
  0x02, 0x00, 0x00, 0x00, 0xff, 0xff, 0xff, 0xff, 0x02, 0x00, 0x00, 0x00,
  0x50, 0xfd, 0xff, 0xff, 0x1b, 0x00, 0x00, 0x00, 0x53, 0x74, 0x61, 0x74,
  0x65, 0x66, 0x75, 0x6c, 0x50, 0x61, 0x72, 0x74, 0x69, 0x74, 0x69, 0x6f,
  0x6e, 0x65, 0x64, 0x43, 0x61, 0x6c, 0x6c, 0x5f, 0x31, 0x3a, 0x30, 0x00,
  0x02, 0x00, 0x00, 0x00, 0x01, 0x00, 0x00, 0x00, 0x02, 0x00, 0x00, 0x00,
  0xbe, 0xfd, 0xff, 0xff, 0x00, 0x00, 0x00, 0x01, 0x14, 0x00, 0x00, 0x00,
  0x1c, 0x00, 0x00, 0x00, 0x1c, 0x00, 0x00, 0x00, 0x07, 0x00, 0x00, 0x00,
  0x58, 0x00, 0x00, 0x00, 0x02, 0x00, 0x00, 0x00, 0xff, 0xff, 0xff, 0xff,
  0x02, 0x00, 0x00, 0x00, 0xa8, 0xfd, 0xff, 0xff, 0x3c, 0x00, 0x00, 0x00,
  0x73, 0x65, 0x71, 0x75, 0x65, 0x6e, 0x74, 0x69, 0x61, 0x6c, 0x5f, 0x31,
  0x2f, 0x64, 0x65, 0x6e, 0x73, 0x65, 0x5f, 0x31, 0x5f, 0x32, 0x2f, 0x4d,
  0x61, 0x74, 0x4d, 0x75, 0x6c, 0x3b, 0x73, 0x65, 0x71, 0x75, 0x65, 0x6e,
  0x74, 0x69, 0x61, 0x6c, 0x5f, 0x31, 0x2f, 0x64, 0x65, 0x6e, 0x73, 0x65,
  0x5f, 0x31, 0x5f, 0x32, 0x2f, 0x42, 0x69, 0x61, 0x73, 0x41, 0x64, 0x64,
  0x00, 0x00, 0x00, 0x00, 0x02, 0x00, 0x00, 0x00, 0x01, 0x00, 0x00, 0x00,
  0x02, 0x00, 0x00, 0x00, 0x3a, 0xfe, 0xff, 0xff, 0x00, 0x00, 0x00, 0x01,
  0x14, 0x00, 0x00, 0x00, 0x1c, 0x00, 0x00, 0x00, 0x1c, 0x00, 0x00, 0x00,
  0x06, 0x00, 0x00, 0x00, 0x6c, 0x00, 0x00, 0x00, 0x02, 0x00, 0x00, 0x00,
  0xff, 0xff, 0xff, 0xff, 0x10, 0x00, 0x00, 0x00, 0x24, 0xfe, 0xff, 0xff,
  0x52, 0x00, 0x00, 0x00, 0x73, 0x65, 0x71, 0x75, 0x65, 0x6e, 0x74, 0x69,
  0x61, 0x6c, 0x5f, 0x31, 0x2f, 0x64, 0x65, 0x6e, 0x73, 0x65, 0x5f, 0x31,
  0x2f, 0x4d, 0x61, 0x74, 0x4d, 0x75, 0x6c, 0x3b, 0x73, 0x65, 0x71, 0x75,
  0x65, 0x6e, 0x74, 0x69, 0x61, 0x6c, 0x5f, 0x31, 0x2f, 0x64, 0x65, 0x6e,
  0x73, 0x65, 0x5f, 0x31, 0x2f, 0x52, 0x65, 0x6c, 0x75, 0x3b, 0x73, 0x65,
  0x71, 0x75, 0x65, 0x6e, 0x74, 0x69, 0x61, 0x6c, 0x5f, 0x31, 0x2f, 0x64,
  0x65, 0x6e, 0x73, 0x65, 0x5f, 0x31, 0x2f, 0x42, 0x69, 0x61, 0x73, 0x41,
  0x64, 0x64, 0x00, 0x00, 0x02, 0x00, 0x00, 0x00, 0x01, 0x00, 0x00, 0x00,
  0x10, 0x00, 0x00, 0x00, 0x1a, 0xff, 0xff, 0xff, 0x00, 0x00, 0x00, 0x01,
  0x10, 0x00, 0x00, 0x00, 0x10, 0x00, 0x00, 0x00, 0x05, 0x00, 0x00, 0x00,
  0x44, 0x00, 0x00, 0x00, 0xa4, 0xfe, 0xff, 0xff, 0x36, 0x00, 0x00, 0x00,
  0x73, 0x65, 0x71, 0x75, 0x65, 0x6e, 0x74, 0x69, 0x61, 0x6c, 0x5f, 0x31,
  0x2f, 0x64, 0x65, 0x6e, 0x73, 0x65, 0x5f, 0x31, 0x2f, 0x52, 0x65, 0x6c,
  0x75, 0x3b, 0x73, 0x65, 0x71, 0x75, 0x65, 0x6e, 0x74, 0x69, 0x61, 0x6c,
  0x5f, 0x31, 0x2f, 0x64, 0x65, 0x6e, 0x73, 0x65, 0x5f, 0x31, 0x2f, 0x42,
  0x69, 0x61, 0x73, 0x41, 0x64, 0x64, 0x00, 0x00, 0x01, 0x00, 0x00, 0x00,
  0x10, 0x00, 0x00, 0x00, 0x7a, 0xff, 0xff, 0xff, 0x00, 0x00, 0x00, 0x01,
  0x10, 0x00, 0x00, 0x00, 0x10, 0x00, 0x00, 0x00, 0x04, 0x00, 0x00, 0x00,
  0x28, 0x00, 0x00, 0x00, 0x04, 0xff, 0xff, 0xff, 0x1b, 0x00, 0x00, 0x00,
  0x73, 0x65, 0x71, 0x75, 0x65, 0x6e, 0x74, 0x69, 0x61, 0x6c, 0x5f, 0x31,
  0x2f, 0x64, 0x65, 0x6e, 0x73, 0x65, 0x5f, 0x31, 0x2f, 0x4d, 0x61, 0x74,
  0x4d, 0x75, 0x6c, 0x00, 0x02, 0x00, 0x00, 0x00, 0x10, 0x00, 0x00, 0x00,
  0x18, 0x00, 0x00, 0x00, 0xc2, 0xff, 0xff, 0xff, 0x00, 0x00, 0x00, 0x01,
  0x10, 0x00, 0x00, 0x00, 0x10, 0x00, 0x00, 0x00, 0x03, 0x00, 0x00, 0x00,
  0x1c, 0x00, 0x00, 0x00, 0x4c, 0xff, 0xff, 0xff, 0x0f, 0x00, 0x00, 0x00,
  0x61, 0x72, 0x69, 0x74, 0x68, 0x2e, 0x63, 0x6f, 0x6e, 0x73, 0x74, 0x61,
  0x6e, 0x74, 0x31, 0x00, 0x02, 0x00, 0x00, 0x00, 0x02, 0x00, 0x00, 0x00,
  0x10, 0x00, 0x00, 0x00, 0x00, 0x00, 0x16, 0x00, 0x18, 0x00, 0x14, 0x00,
  0x00, 0x00, 0x10, 0x00, 0x0c, 0x00, 0x08, 0x00, 0x00, 0x00, 0x00, 0x00,
  0x00, 0x00, 0x07, 0x00, 0x16, 0x00, 0x00, 0x00, 0x00, 0x00, 0x00, 0x01,
  0x10, 0x00, 0x00, 0x00, 0x10, 0x00, 0x00, 0x00, 0x02, 0x00, 0x00, 0x00,
  0x1c, 0x00, 0x00, 0x00, 0xa0, 0xff, 0xff, 0xff, 0x0e, 0x00, 0x00, 0x00,
  0x61, 0x72, 0x69, 0x74, 0x68, 0x2e, 0x63, 0x6f, 0x6e, 0x73, 0x74, 0x61,
  0x6e, 0x74, 0x00, 0x00, 0x01, 0x00, 0x00, 0x00, 0x02, 0x00, 0x00, 0x00,
  0x00, 0x00, 0x16, 0x00, 0x1c, 0x00, 0x18, 0x00, 0x00, 0x00, 0x14, 0x00,
  0x10, 0x00, 0x0c, 0x00, 0x00, 0x00, 0x00, 0x00, 0x08, 0x00, 0x07, 0x00,
  0x16, 0x00, 0x00, 0x00, 0x00, 0x00, 0x00, 0x01, 0x14, 0x00, 0x00, 0x00,
  0x20, 0x00, 0x00, 0x00, 0x20, 0x00, 0x00, 0x00, 0x01, 0x00, 0x00, 0x00,
  0x3c, 0x00, 0x00, 0x00, 0x02, 0x00, 0x00, 0x00, 0xff, 0xff, 0xff, 0xff,
  0x18, 0x00, 0x00, 0x00, 0x04, 0x00, 0x04, 0x00, 0x04, 0x00, 0x00, 0x00,
  0x1e, 0x00, 0x00, 0x00, 0x73, 0x65, 0x72, 0x76, 0x69, 0x6e, 0x67, 0x5f,
  0x64, 0x65, 0x66, 0x61, 0x75, 0x6c, 0x74, 0x5f, 0x6b, 0x65, 0x72, 0x61,
  0x73, 0x5f, 0x74, 0x65, 0x6e, 0x73, 0x6f, 0x72, 0x3a, 0x30, 0x00, 0x00,
  0x02, 0x00, 0x00, 0x00, 0x01, 0x00, 0x00, 0x00, 0x18, 0x00, 0x00, 0x00,
  0x02, 0x00, 0x00, 0x00, 0x20, 0x00, 0x00, 0x00, 0x04, 0x00, 0x00, 0x00,
  0xf4, 0xff, 0xff, 0xff, 0x19, 0x00, 0x00, 0x00, 0x00, 0x00, 0x00, 0x19,
  0x0c, 0x00, 0x0c, 0x00, 0x0b, 0x00, 0x00, 0x00, 0x00, 0x00, 0x04, 0x00,
  0x0c, 0x00, 0x00, 0x00, 0x09, 0x00, 0x00, 0x00, 0x00, 0x00, 0x00, 0x09,
};
const unsigned int g_edgeai_model_len = 3444;
